<PAD>	0
<SOS>	0
<EOS>	0
<UNK>	0
aa	-0
an	-1
▁k	-2
▁p	-3
▁s	-4
▁d	-5
ha	-6
ho	-7
▁m	-8
▁b	-9
haa	-10
am	-11
▁v	-12
at	-13
ar	-14
er	-15
▁t	-16
ni	-17
vo	-18
▁g	-19
▁j	-20
hi	-21
al	-22
uvo	-23
▁c	-24
hu	-25
he	-26
▁ker	-27
▁n	-28
aat	-29
▁r	-30
un	-31
av	-32
aar	-33
lo	-34
aan	-35
ti	-36
ani	-37
ad	-38
▁po	-39
kk	-40
ee	-41
as	-42
ur	-43
ak	-44
in	-45
han	-46
di	-47
te	-48
▁l	-49
to	-50
tu	-51
▁o	-52
ay	-53
oo	-54
ud	-55
aal	-56
aas	-57
▁vi	-58
▁/	-59
ano	-60
us	-61
ul	-62
ri	-63
gg	-64
▁ho	-65
▁so	-66
il	-67
du	-68
ko	-69
▁ni	-70
ut	-71
en	-72
yo	-73
▁de	-74
hal	-75
atte	-76
▁a	-77
▁mo	-78
kani	-79
ro	-80
aav	-81
▁ke	-82
um	-83
ini	-84
▁ko	-85
▁pr	-86
aam	-87
aay	-88
▁an	-89
jj	-90
is	-91
aad	-92
ir	-93
ru	-94
aak	-95
no	-96
do	-97
▁se	-98
it	-99
▁hu	-100
el	-101
uk	-102
hoo	-103
pp	-104
li	-105
hav	-106
har	-107
ab	-108
le	-109
▁u	-110
haal	-111
▁sam	-112
ag	-113
et	-114
gu	-115
▁do	-116
▁keruvo	-117
nu	-118
haar	-119
▁bo	-120
▁hi	-121
▁ss	-122
haat	-123
ai	-124
sh	-125
chi	-126
▁san	-127
ap	-128
aap	-129
▁go	-130
nj	-131
ki	-132
▁par	-133
▁rhaa	-134
her	-135
▁te	-136
▁to	-137
bb	-138
▁che	-139
mb	-140
hat	-141
ch	-142
iv	-143
so	-144
▁av	-145
hano	-146
▁jaa	-147
ati	-148
nd	-149
▁lo	-150
▁pot	-151
ik	-152
ng	-153
su	-154
ram	-155
▁am	-156
duvo	-157
uv	-158
▁kho	-159
▁sa	-160
haan	-161
▁bho	-162
aduvo	-163
ayo	-164
ci	-165
ke	-166
kan	-167
▁ad	-168
▁al	-169
▁je	-170
▁kal	-171
▁vis	-172
akani	-173
mo	-174
vi	-175
hak	-176
▁ve	-177
nt	-178
aro	-179
▁un	-180
▁bhe	-181
▁ghe	-182
po	-183
ikk	-184
▁han	-185
go	-186
tt	-187
jji	-188
▁no	-189
▁pe	-190
▁re	-191
and	-192
▁phu	-193
▁bhaa	-194
ngg	-195
yam	-196
▁be	-197
▁ge	-198
▁he	-199
▁chi	-200
▁dha	-201
▁khe	-202
aag	-203
dur	-204
llo	-205
naar	-206
▁vat	-207
ku	-208
▁e	-209
ayi	-210
ush	-211
▁mho	-212
▁moo	-213
de	-214
lu	-215
ra	-216
chc	-217
ndi	-218
▁up	-219
cc	-220
gi	-221
ka	-222
ye	-223
aaj	-224
hir	-225
▁me	-226
▁ut	-227
kaar	-228
▁pan	-229
▁tho	-230
▁as	-231
▁jhaa	-232
pu	-233
ato	-234
eet	-235
ukk	-236
▁ka	-237
▁dhe	-238
▁dher	-239
vu	-240
ya	-241
▁bha	-242
▁bhu	-243
▁haa	-244
ig	-245
chu	-246
kal	-247
▁ro	-248
haam	-249
▁vid	-250
ta	-251
▁ha	-252
luvo	-253
▁man	-254
▁pho	-255
▁soo	-256
jc	-257
aks	-258
amb	-259
ari	-260
dhi	-261
ker	-262
▁le	-263
aalu	-264
▁nir	-265
na	-266
yu	-267
ili	-268
kki	-269
▁ma	-270
▁saa	-271
▁kaam	-272
▁at	-273
aash	-274
▁bhi	-275
▁dhu	-276
▁jav	-277
▁kav	-278
▁paan	-279
▁taay	-280
ji	-281
ll	-282
ug	-283
▁kar	-284
hy	-285
id	-286
▁y	-287
ggu	-288
▁mud	-289
▁pat	-290
▁bhar	-291
pi	-292
alo	-293
aru	-294
avo	-295
nam	-296
ran	-297
tto	-298
▁ap	-299
▁khal	-300
ant	-301
ees	-302
tti	-303
▁ud	-304
▁sar	-305
▁nhan	-306
im	-307
ks	-308
mm	-309
re	-310
ddi	-311
kku	-312
▁jo	-313
apan	-314
▁dhi	-315
▁gho	-316
▁hal	-317
▁kon	-318
▁khaal	-319
aj	-320
eel	-321
ggi	-322
ham	-323
saa	-324
uro	-325
▁co	-326
▁sv	-327
aani	-328
▁aas	-329
▁jee	-330
▁mit	-331
ac	-332
up	-333
ako	-334
ggo	-335
ile	-336
uno	-337
▁ak	-338
▁ce	-339
▁st	-340
raat	-341
▁chu	-342
▁hav	-343
▁roo	-344
▁sab	-345
▁var	-346
▁vas	-347
arano	-348
▁dhoo	-349
▁phal	-350
bo	-351
bhaa	-352
▁poo	-353
▁sin	-354
▁bhan	-355
▁kaar	-356
▁vaat	-357
ana	-358
sht	-359
ttu	-360
ulo	-361
▁ab	-362
▁on	-363
atti	-364
yaar	-365
▁kaal	-366
▁pani	-367
▁jhaad	-368
ars	-369
bbi	-370
ish	-371
kko	-372
oot	-373
uri	-374
▁di	-375
▁or	-376
ailo	-377
maan	-378
▁gun	-379
▁nar	-380
▁the	-381
▁tir	-382
▁vin	-383
gk	-384
mp	-385
gun	-386
rko	-387
tar	-388
udo	-389
▁dh	-390
▁ne	-391
ruvo	-392
▁cho	-393
▁gav	-394
▁hoo	-395
▁jhu	-396
▁kha	-397
▁kut	-398
▁mal	-399
▁mus	-400
▁pol	-401
▁van	-402
▁paat	-403
nn	-404
uj	-405
kat	-406
laa	-407
▁ar	-408
▁vy	-409
aste	-410
▁amb	-411
▁din	-412
▁hat	-413
▁kun	-414
▁pad	-415
▁phi	-416
▁pus	-417
▁sot	-418
▁sov	-419
datte	-420
hakti	-421
▁bhav	-422
▁bhoo	-423
cha	-424
hin	-425
nno	-426
rav	-427
rle	-428
tav	-429
vri	-430
▁na	-431
aadi	-432
andi	-433
haav	-434
vaat	-435
▁aak	-436
▁cer	-437
▁mar	-438
▁pal	-439
▁pis	-440
▁see	-441
▁baad	-442
▁dham	-443
▁haat	-444
▁phir	-445
▁haatu	-446
▁bhajji	-447
mu	-448
si	-449
aac	-450
ast	-451
jci	-452
oor	-453
umb	-454
van	-455
var	-456
▁ala	-457
▁dee	-458
▁gud	-459
▁gul	-460
▁har	-461
▁kan	-462
▁khu	-463
▁mha	-464
▁nat	-465
▁pas	-466
▁pre	-467
▁ser	-468
▁sil	-469
▁sun	-470
▁tur	-471
▁chal	-472
▁hoye	-473
▁phoo	-474
▁bhaar	-475
▁jhaat	-476
ip	-477
va	-478
vd	-479
aka	-480
iri	-481
sho	-482
tan	-483
▁ru	-484
▁yo	-485
aadu	-486
aanu	-487
endu	-488
ramo	-489
▁bud	-490
▁kri	-491
▁lag	-492
▁nee	-493
▁sav	-494
▁dhaa	-495
▁maar	-496
▁prak	-497
▁saam	-498
▁saas	-499
▁thov	-500
▁prati	-501
▁vatto	-502
es	-503
aab	-504
ali	-505
eek	-506
gat	-507
ito	-508
jaa	-509
mbu	-510
tak	-511
thu	-512
ump	-513
vat	-514
aaru	-515
chal	-516
daar	-517
vaar	-518
▁aad	-519
▁dho	-520
▁min	-521
▁nam	-522
▁pha	-523
▁val	-524
amaan	-525
▁onte	-526
▁saad	-527
▁pollo	-528
ub	-529
vs	-530
cho	-531
daa	-532
hee	-533
nav	-534
njc	-535
ppo	-536
rat	-537
uru	-538
▁aa	-539
▁ta	-540
haas	-541
hani	-542
pano	-543
ppan	-544
ullo	-545
vaan	-546
yaav	-547
▁cha	-548
▁dal	-549
▁him	-550
▁jan	-551
▁jha	-552
▁kas	-553
▁nas	-554
▁nav	-555
▁pil	-556
▁put	-557
▁sad	-558
▁sas	-559
▁tal	-560
▁ven	-561
aachu	-562
▁pras	-563
▁sukk	-564
▁mhodo	-565
▁bhandi	-566
iy	-567
▁i	-568
ago	-569
eer	-570
gut	-571
ino	-572
kam	-573
nti	-574
ool	-575
vun	-576
ynj	-577
▁ee	-578
▁va	-579
anam	-580
jano	-581
raan	-582
▁aan	-583
▁aav	-584
▁ang	-585
▁cal	-586
▁div	-587
▁kat	-588
▁kay	-589
▁lho	-590
▁muk	-591
▁tan	-592
▁tel	-593
▁vad	-594
rnaar	-595
▁bhee	-596
▁divo	-597
▁gher	-598
▁naas	-599
▁raaj	-600
▁dheri	-601
▁ghaal	-602
▁thaam	-603
▁bhurko	-604
▁bharaat	-605
sk	-606
ss	-607
ddu	-608
iso	-609
jju	-610
lin	-611
naa	-612
nni	-613
nnu	-614
nto	-615
pat	-616
rni	-617
tte	-618
vaa	-619
vlo	-620
yav	-621
▁ay	-622
▁ku	-623
▁mu	-624
▁pa	-625
▁us	-626
antu	-627
lini	-628
unaa	-629
▁ghu	-630
▁kab	-631
▁kir	-632
▁lhe	-633
▁men	-634
▁pav	-635
▁pee	-636
▁phe	-637
▁pir	-638
▁sen	-639
▁sud	-640
▁ter	-641
▁tet	-642
▁ton	-643
▁vel	-644
aasht	-645
jcuvo	-646
latte	-647
unaar	-648
▁daat	-649
▁hand	-650
▁jaal	-651
▁nhaa	-652
▁sang	-653
▁tavo	-654
ulatte	-655
▁ambat	-656
▁dinnu	-657
ga	-658
ve	-659
adi	-660
gum	-661
gur	-662
ind	-663
jam	-664
kar	-665
kul	-666
ntu	-667
vdi	-668
vli	-669
vvo	-670
▁ga	-671
▁iv	-672
▁si	-673
aalo	-674
aasu	-675
alam	-676
chaa	-677
ingg	-678
laat	-679
nggo	-680
paan	-681
ttar	-682
vano	-683
▁aaj	-684
▁app	-685
▁bis	-686
▁dus	-687
▁jhe	-688
▁ken	-689
▁ont	-690
▁sat	-691
▁tar	-692
▁vib	-693
▁vir	-694
aadhi	-695
chano	-696
kkani	-697
saalo	-698
▁anum	-699
▁anus	-700
▁dhan	-701
▁jhan	-702
▁kaan	-703
▁khat	-704
▁raak	-705
▁rhav	-706
▁varo	-707
▁sabdu	-708
▁samar	-709
▁vibhaa	-710
ev	-711
mi	-712
st	-713
vr	-714
yd	-715
yi	-716
yn	-717
ami	-718
avi	-719
aye	-720
cci	-721
dad	-722
dar	-723
eaa	-724
elu	-725
gal	-726
jje	-727
kaa	-728
pan	-729
ppi	-730
rad	-731
rsu	-732
sha	-733
sko	-734
tro	-735
tru	-736
unt	-737
unu	-738
vam	-739
▁ul	-740
aavu	-741
indu	-742
kini	-743
pati	-744
rchi	-745
tiso	-746
usht	-747
uttu	-748
yaal	-749
▁aar	-750
▁gam	-751
▁kus	-752
▁mol	-753
▁nan	-754
▁nim	-755
▁pun	-756
▁rha	-757
▁tat	-758
antru	-759
jjuvo	-760
kkuvo	-761
uluvo	-762
▁aajn	-763
▁abhi	-764
▁bhun	-765
▁choo	-766
▁jhir	-767
▁khav	-768
▁khel	-769
▁khol	-770
▁lamb	-771
▁mhal	-772
▁mool	-773
▁prat	-774
▁sikk	-775
▁vaar	-776
▁vatt	-777
abhaav	-778
▁alagg	-779
▁bhaat	-780
▁chaal	-781
▁ghedi	-782
▁phail	-783
▁ssaas	-784
▁bharti	-785
▁poduvo	-786
▁vibhaag	-787
ge	-788
gr	-789
ii	-790
me	-791
tr	-792
aib	-793
dam	-794
dan	-795
een	-796
ing	-797
jjo	-798
khu	-799
lle	-800
nji	-801
par	-802
pot	-803
raa	-804
ree	-805
tam	-806
uni	-807
vro	-808
yaa	-809
yat	-810
▁ba	-811
▁bi	-812
▁li	-813
▁lu	-814
▁ot	-815
▁pi	-816
▁ti	-817
aari	-818
akar	-819
hana	-820
heet	-821
hiti	-822
kayi	-823
kuvo	-824
mbul	-825
mmar	-826
pani	-827
shak	-828
yaan	-829
▁bal	-830
▁cen	-831
▁des	-832
▁dur	-833
▁duv	-834
▁gum	-835
▁gur	-836
▁jel	-837
▁jun	-838
▁kot	-839
▁kud	-840
▁kul	-841
▁lik	-842
▁mil	-843
▁mos	-844
▁mun	-845
▁pur	-846
▁ras	-847
▁sig	-848
▁siv	-849
▁sut	-850
▁tee	-851
▁ten	-852
▁vil	-853
andhu	-854
chaar	-855
chcho	-856
chini	-857
dhano	-858
kkaat	-859
ngaat	-860
ushti	-861
▁apul	-862
▁devo	-863
▁doot	-864
▁hind	-865
▁khan	-866
▁maay	-867
▁naav	-868
▁paay	-869
▁peet	-870
▁pikk	-871
▁poor	-872
▁prad	-873
▁saar	-874
▁saha	-875
▁savo	-876
askaar	-877
▁ghaam	-878
▁hibbi	-879
▁paris	-880
▁maargu	-881
▁raasht	-882
▁podatte	-883
dh	-884
ma	-885
vv	-886
yr	-887
▁-	-888
ado	-889
alu	-890
amo	-891
apo	-892
ash	-893
bhu	-894
gud	-895
jan	-896
kil	-897
lan	-898
man	-899
ndu	-900
she	-901
shu	-902
tri	-903
▁el	-904
▁it	-905
▁ur	-906
aamo	-907
aayu	-908
ayet	-909
cuvo	-910
hako	-911
hini	-912
hool	-913
ingu	-914
irni	-915
jaal	-916
kaan	-917
kkur	-918
naav	-919
rano	-920
reni	-921
ruti	-922
tini	-923
tiri	-924
yaat	-925
▁aat	-926
▁and	-927
▁bus	-928
▁gha	-929
▁hor	-930
▁hud	-931
▁kis	-932
▁kur	-933
▁len	-934
▁mis	-935
▁mor	-936
▁nal	-937
▁nil	-938
▁pey	-939
▁ros	-940
▁she	-941
▁sul	-942
▁tav	-943
▁too	-944
▁unn	-945
▁vav	-946
aanaa	-947
gguvo	-948
kkini	-949
uddhi	-950
vruvo	-951
▁chat	-952
▁chin	-953
▁dand	-954
▁geet	-955
▁hibb	-956
▁ivar	-957
▁kaat	-958
▁meni	-959
▁paal	-960
▁phan	-961
a	-962
▁	-963
o	-964
i	-965
n	-966
'	-967
u	-968
t	-969
h	-970
r	-971
k	-972
e	-973
s	-974
d	-975
l	-976
v	-977
m	-978
p	-979
g	-980
b	-981
j	-982
c	-983
y	-984
,	-985
/	-986
-	-987
~	-988
(	-989
)	-990
_	-991
.	-992
&	-993
:	-994
q	-995
