<PAD>	0
<SOS>	0
<EOS>	0
<UNK>	0
▁s	-0
in	-1
er	-2
on	-3
▁c	-4
▁b	-5
▁p	-6
at	-7
re	-8
▁t	-9
an	-10
en	-11
ar	-12
le	-13
▁f	-14
▁m	-15
▁d	-16
▁a	-17
or	-18
▁w	-19
ing	-20
it	-21
al	-22
st	-23
▁h	-24
ou	-25
▁g	-26
▁l	-27
ion	-28
ic	-29
ro	-30
ss	-31
il	-32
▁e	-33
ra	-34
▁o	-35
ly	-36
ent	-37
om	-38
is	-39
▁be	-40
▁st	-41
ve	-42
ce	-43
▁n	-44
▁in	-45
ed	-46
ot	-47
▁th	-48
ri	-49
ch	-50
se	-51
ol	-52
ct	-53
et	-54
un	-55
▁re	-56
ut	-57
and	-58
ow	-59
el	-60
ate	-61
ig	-62
ir	-63
ur	-64
▁of	-65
ation	-66
am	-67
id	-68
th	-69
im	-70
ad	-71
ge	-72
▁sh	-73
▁de	-74
ver	-75
ay	-76
um	-77
ke	-78
▁ch	-79
oo	-80
ul	-81
ck	-82
▁r	-83
▁con	-84
us	-85
em	-86
der	-87
ter	-88
as	-89
oun	-90
ess	-91
▁le	-92
▁to	-93
pp	-94
▁sp	-95
qu	-96
ment	-97
ht	-98
ry	-99
ill	-100
▁an	-101
▁k	-102
ab	-103
▁se	-104
ice	-105
ure	-106
▁co	-107
ist	-108
her	-109
▁com	-110
one	-111
if	-112
ity	-113
▁v	-114
our	-115
▁j	-116
la	-117
▁y	-118
age	-119
▁ex	-120
ake	-121
ant	-122
▁the	-123
ast	-124
ive	-125
ard	-126
est	-127
ick	-128
▁pl	-129
ea	-130
up	-131
▁wh	-132
ain	-133
ance	-134
all	-135
ine	-136
▁bo	-137
ight	-138
ip	-139
ood	-140
▁sc	-141
▁pro	-142
ree	-143
▁ro	-144
ness	-145
ff	-146
ort	-147
▁un	-148
ous	-149
▁per	-150
ith	-151
ell	-152
ie	-153
▁mo	-154
art	-155
ect	-156
ish	-157
out	-158
▁pre	-159
ind	-160
▁gra	-161
iv	-162
ru	-163
▁po	-164
▁wor	-165
lo	-166
sh	-167
ud	-168
ap	-169
▁al	-170
ide	-171
▁sw	-172
▁with	-173
ub	-174
con	-175
▁for	-176
ome	-177
ater	-178
▁comp	-179
▁lo	-180
row	-181
ear	-182
ire	-183
▁qu	-184
ence	-185
▁man	-186
ee	-187
▁ha	-188
ger	-189
ise	-190
▁or	-191
ound	-192
sp	-193
▁gr	-194
▁me	-195
▁bro	-196
od	-197
end	-198
ze	-199
▁ar	-200
▁mar	-201
ction	-202
old	-203
ust	-204
▁ra	-205
▁exp	-206
ac	-207
low	-208
op	-209
ale	-210
are	-211
▁at	-212
▁en	-213
▁ne	-214
▁dis	-215
use	-216
▁sm	-217
pt	-218
son	-219
▁fo	-220
es	-221
ang	-222
ath	-223
▁ab	-224
▁ad	-225
ning	-226
▁gre	-227
▁rice	-228
ag	-229
ach	-230
ress	-231
▁day	-232
ep	-233
ary	-234
ven	-235
▁lea	-236
gh	-237
ite	-238
ong	-239
▁pr	-240
▁not	-241
ail	-242
tle	-243
▁by	-244
▁im	-245
ther	-246
▁do	-247
▁up	-248
▁hand	-249
▁tree	-250
oc	-251
ue	-252
▁su	-253
▁ind	-254
▁(	-255
▁li	-256
ally	-257
▁bec	-258
▁water	-259
ert	-260
ink	-261
▁on	-262
▁and	-263
▁ear	-264
▁tra	-265
conut	-266
▁coconut	-267
▁/	-268
eat	-269
ran	-270
▁ac	-271
▁ri	-272
▁app	-273
iss	-274
▁cl	-275
▁no	-276
atch	-277
▁pal	-278
▁wom	-279
▁person	-280
ime	-281
ord	-282
▁ve	-283
able	-284
ition	-285
ght	-286
ife	-287
ile	-288
mer	-289
orm	-290
du	-291
ack	-292
ame	-293
ute	-294
▁lit	-295
ister	-296
ew	-297
ix	-298
ble	-299
ple	-300
▁ca	-301
▁go	-302
▁it	-303
▁so	-304
ting	-305
▁woman	-306
dle	-307
ult	-308
▁bl	-309
▁sn	-310
ough	-311
▁col	-312
▁youn	-313
ash	-314
ber	-315
eet	-316
▁min	-317
▁aw	-318
▁el	-319
▁fl	-320
▁he	-321
other	-322
▁cont	-323
▁grand	-324
os	-325
ful	-326
ign	-327
▁ob	-328
▁att	-329
▁her	-330
▁lad	-331
▁one	-332
▁make	-333
▁palm	-334
ft	-335
fer	-336
ook	-337
oth	-338
red	-339
▁ag	-340
ouse	-341
▁out	-342
▁ver	-343
inger	-344
ak	-345
aw	-346
amp	-347
ond	-348
per	-349
▁as	-350
▁fe	-351
ount	-352
▁leaf	-353
▁will	-354
pe	-355
ict	-356
ump	-357
▁em	-358
▁ho	-359
▁bra	-360
▁cur	-361
ather	-362
iness	-363
▁brother	-364
ci	-365
de	-366
ily	-367
int	-368
ore	-369
ory	-370
ren	-371
▁ey	-372
▁sk	-373
aste	-374
lack	-375
ling	-376
ruit	-377
▁fri	-378
▁get	-379
▁ten	-380
ative	-381
▁that	-382
itation	-383
cy	-384
ty	-385
act	-386
ank	-387
get	-388
▁we	-389
less	-390
▁cor	-391
▁dec	-392
▁hun	-393
▁pol	-394
▁pot	-395
▁pow	-396
▁pra	-397
asure	-398
▁good	-399
▁gram	-400
▁take	-401
▁time	-402
av	-403
ey	-404
ark	-405
man	-406
▁af	-407
▁br	-408
▁dr	-409
▁acc	-410
▁bir	-411
▁car	-412
▁rec	-413
ament	-414
▁fruit	-415
▁become	-416
ld	-417
day	-418
ens	-419
let	-420
uff	-421
ush	-422
▁kn	-423
outh	-424
▁int	-425
ately	-426
▁light	-427
▁sweet	-428
ph	-429
▁am	-430
▁ir	-431
▁ass	-432
▁dra	-433
▁inc	-434
▁win	-435
▁comm	-436
▁conf	-437
▁side	-438
▁inter	-439
▁marri	-440
li	-441
ll	-442
og	-443
alk	-444
ild	-445
ilk	-446
irl	-447
ner	-448
▁id	-449
ason	-450
cept	-451
pper	-452
▁bre	-453
▁bur	-454
▁hus	-455
▁imp	-456
▁rel	-457
▁boil	-458
▁like	-459
▁stud	-460
▁wood	-461
▁black	-462
▁house	-463
▁little	-464
▁powder	-465
oy	-466
ase	-467
ass	-468
ony	-469
rom	-470
ule	-471
▁sa	-472
ious	-473
▁bri	-474
▁cra	-475
▁dri	-476
▁ent	-477
▁god	-478
ature	-479
▁hair	-480
▁happ	-481
▁over	-482
▁this	-483
▁finger	-484
▁mother	-485
ib	-486
ief	-487
ose	-488
ual	-489
uck	-490
▁tw	-491
ause	-492
▁act	-493
▁inf	-494
▁pen	-495
▁rep	-496
▁spr	-497
▁sur	-498
▁tem	-499
▁part	-500
▁birth	-501
au	-502
ax	-503
ize	-504
ool	-505
str	-506
ull	-507
▁gu	-508
here	-509
very	-510
▁beg	-511
▁cow	-512
▁eye	-513
▁ins	-514
▁lab	-515
▁mer	-516
▁mon	-517
▁mor	-518
▁oil	-519
▁pri	-520
▁res	-521
▁ter	-522
ander	-523
ently	-524
▁cons	-525
▁foot	-526
▁mark	-527
▁some	-528
▁measure	-529
▁marriage	-530
dy	-531
ian	-532
ism	-533
par	-534
ron	-535
rop	-536
▁ph	-537
cess	-538
ical	-539
lect	-540
ship	-541
▁bel	-542
▁bet	-543
▁mad	-544
▁ser	-545
▁sub	-546
ility	-547
▁fire	-548
▁lamp	-549
▁long	-550
▁pain	-551
▁word	-552
▁work	-553
▁after	-554
▁small	-555
▁father	-556
▁younger	-557
ex	-558
air	-559
cer	-560
ated	-561
oose	-562
▁any	-563
▁bar	-564
▁ben	-565
▁fem	-566
▁fun	-567
▁let	-568
▁mus	-569
▁off	-570
▁red	-571
▁reg	-572
▁tea	-573
▁war	-574
▁male	-575
▁wife	-576
▁green	-577
▁stick	-578
▁stone	-579
ression	-580
▁sister	-581
ug	-582
ane	-583
ies	-584
key	-585
lic	-586
ott	-587
ove	-588
own	-589
uty	-590
▁cr	-591
▁ev	-592
▁pe	-593
▁sy	-594
▁te	-595
band	-596
ings	-597
ital	-598
part	-599
▁cer	-600
▁clo	-601
▁cre	-602
▁des	-603
▁fin	-604
▁hor	-605
▁how	-606
▁par	-607
▁pea	-608
▁squ	-609
▁tam	-610
▁tre	-611
▁tur	-612
▁use	-613
ffect	-614
▁back	-615
▁lady	-616
▁love	-617
▁well	-618
▁short	-619
▁season	-620
▁because	-621
co	-622
ma	-623
vy	-624
dge	-625
ial	-626
ift	-627
law	-628
rel	-629
umb	-630
▁sl	-631
ison	-632
▁bab	-633
▁gar	-634
▁gen	-635
▁har	-636
▁orn	-637
angle	-638
ating	-639
▁anim	-640
▁date	-641
▁feel	-642
▁fore	-643
▁give	-644
▁hard	-645
▁moon	-646
▁obst	-647
▁rain	-648
▁seed	-649
▁thre	-650
▁vess	-651
▁wind	-652
▁elder	-653
▁young	-654
▁temple	-655
▁husband	-656
▁ornament	-657
az	-658
iz	-659
me	-660
xt	-661
ery	-662
ich	-663
igh	-664
joy	-665
les	-666
min	-667
ney	-668
ody	-669
oud	-670
way	-671
▁jo	-672
cond	-673
ival	-674
room	-675
▁ann	-676
▁arm	-677
▁bea	-678
▁box	-679
▁but	-680
▁dem	-681
▁inv	-682
▁ple	-683
▁sal	-684
▁sim	-685
▁sol	-686
ution	-687
▁bath	-688
▁char	-689
▁dest	-690
▁from	-691
▁girl	-692
▁life	-693
▁move	-694
▁play	-695
▁post	-696
estion	-697
▁child	-698
▁enjoy	-699
▁plant	-700
▁plate	-701
▁right	-702
▁separ	-703
▁female	-704
▁friend	-705
ef	-706
ace	-707
alf	-708
app	-709
cle	-710
eak	-711
rif	-712
▁mu	-713
▁ow	-714
▁tr	-715
aint	-716
atur	-717
irst	-718
ject	-719
lass	-720
oney	-721
▁adv	-722
▁big	-723
▁bus	-724
▁cap	-725
▁cro	-726
▁dry	-727
▁ext	-728
▁flo	-729
▁fol	-730
▁lun	-731
▁pap	-732
▁pub	-733
▁sac	-734
▁str	-735
▁who	-736
lower	-737
▁crow	-738
▁disc	-739
▁down	-740
▁milk	-741
▁poet	-742
▁sand	-743
▁scre	-744
▁star	-745
▁tran	-746
dition	-747
▁appro	-748
▁cerem	-749
▁curry	-750
▁every	-751
▁leave	-752
▁under	-753
▁labour	-754
▁tender	-755
cl	-756
ia	-757
nt	-758
acy	-759
ati	-760
edi	-761
gar	-762
iet	-763
iff	-764
oon	-765
ret	-766
rib	-767
ange	-768
form	-769
itch	-770
iver	-771
ract	-772
▁abs	-773
▁ant	-774
▁cle	-775
▁fam	-776
▁hum	-777
▁pla	-778
▁sup	-779
▁tax	-780
▁val	-781
atter	-782
spect	-783
ument	-784
▁away	-785
▁baby	-786
▁ball	-787
▁cook	-788
▁dist	-789
▁fest	-790
▁game	-791
▁head	-792
▁inst	-793
▁kind	-794
▁land	-795
▁lord	-796
▁next	-797
▁rule	-798
▁sign	-799
▁spin	-800
▁term	-801
▁chick	-802
▁dance	-803
▁great	-804
▁sound	-805
▁tooth	-806
▁youth	-807
▁animal	-808
▁vessel	-809
▁ceremony	-810
▁festival	-811
▁expression	-812
gn	-813
gr	-814
sa	-815
▁-	-816
ans	-817
ior	-818
mit	-819
omp	-820
oup	-821
pen	-822
ror	-823
vel	-824
▁is	-825
▁us	-826
alth	-827
atic	-828
augh	-829
cent	-830
rate	-831
▁aut	-832
▁bal	-833
▁bun	-834
▁can	-835
▁cat	-836
▁del	-837
▁equ	-838
▁hea	-839
▁hur	-840
▁irr	-841
▁mis	-842
▁mix	-843
▁opp	-844
▁pan	-845
▁sch	-846
▁tru	-847
▁you	-848
arind	-849
▁care	-850
▁case	-851
▁cent	-852
▁cott	-853
▁dece	-854
▁fish	-855
▁gold	-856
▁pill	-857
▁ring	-858
▁roll	-859
▁room	-860
ention	-861
▁about	-862
▁count	-863
▁crack	-864
▁first	-865
▁stage	-866
▁teach	-867
▁white	-868
▁poetry	-869
▁record	-870
▁minister	-871
▁question	-872
▁tamarind	-873
he	-874
sl	-875
ato	-876
awn	-877
cul	-878
duc	-879
eal	-880
eek	-881
gal	-882
gth	-883
ier	-884
ify	-885
irt	-886
ope	-887
orn	-888
rog	-889
▁di	-890
ator	-891
ding	-892
duct	-893
eeze	-894
ieve	-895
ific	-896
rain	-897
ward	-898
▁age	-899
▁all	-900
▁bad	-901
▁bas	-902
▁beh	-903
▁cou	-904
▁def	-905
▁ele	-906
▁fix	-907
▁hel	-908
▁hot	-909
▁mem	-910
▁new	-911
▁put	-912
▁rem	-913
▁sho	-914
▁two	-915
ality	-916
arden	-917
fully	-918
ident	-919
ingly	-920
iving	-921
orrow	-922
umber	-923
utney	-924
▁diss	-925
▁drum	-926
▁educ	-927
▁have	-928
▁hund	-929
▁king	-930
▁much	-931
▁near	-932
▁prev	-933
▁quar	-934
▁tire	-935
iation	-936
▁cheat	-937
▁chill	-938
▁offer	-939
▁pregn	-940
▁press	-941
▁shell	-942
▁taste	-943
▁veget	-944
▁which	-945
▁accept	-946
▁garden	-947
▁letter	-948
▁market	-949
▁second	-950
▁wooden	-951
partment	-952
▁balance	-953
▁chutney	-954
af	-955
go	-956
of	-957
sy	-958
▁1	-959
amb	-960
arn	-961
att	-962
bra	-963
eel	-964
een	-965
gra	-966
ins	-967
ium	-968
mon	-969
nal	-970
ric	-971
yer	-972
▁hy	-973
▁wa	-974
body	-975
itor	-976
ourd	-977
owel	-978
ower	-979
ront	-980
side	-981
vern	-982
vest	-983
ways	-984
▁air	-985
▁ash	-986
▁ban	-987
▁cut	-988
▁fra	-989
▁him	-990
▁kid	-991
▁mid	-992
▁old	-993
▁pin	-994
▁pun	-995
▁ret	-996
▁rub	-997
▁sun	-998
▁sym	-999
▁tou	-1000
ience	-1001
itter	-1002
ively	-1003
ought	-1004
stand	-1005
under	-1006
▁cour	-1007
▁deep	-1008
▁door	-1009
▁gift	-1010
▁half	-1011
▁join	-1012
▁mock	-1013
▁only	-1014
▁prot	-1015
▁supp	-1016
▁very	-1017
▁bless	-1018
▁cloth	-1019
▁colle	-1020
▁cross	-1021
▁earth	-1022
▁floor	-1023
▁flour	-1024
▁force	-1025
▁front	-1026
▁gourd	-1027
▁gravy	-1028
▁order	-1029
▁other	-1030
▁snake	-1031
▁super	-1032
▁think	-1033
aughter	-1034
ination	-1035
▁affect	-1036
▁beauty	-1037
▁compet	-1038
▁govern	-1039
▁wander	-1040
▁winter	-1041
▁hundred	-1042
▁morning	-1043
▁vegetable	-1044
▁department	-1045
br	-1046
bt	-1047
to	-1048
ade	-1049
agn	-1050
ana	-1051
bar	-1052
elf	-1053
ers	-1054
gle	-1055
ige	-1056
led	-1057
oke	-1058
ost	-1059
roy	-1060
ula	-1061
usp	-1062
war	-1063
xim	-1064
▁av	-1065
▁er	-1066
▁et	-1067
▁ke	-1068
▁ty	-1069
ably	-1070
cial	-1071
ewel	-1072
fore	-1073
gery	-1074
herd	-1075
icle	-1076
pare	-1077
rage	-1078
ruct	-1079
▁ank	-1080
▁art	-1081
▁bud	-1082
▁dan	-1083
▁dig	-1084
▁don	-1085
▁eat	-1086
▁far	-1087
▁fib	-1088
▁hol	-1089
▁imm	-1090
▁jag	-1091
▁law	-1092
▁len	-1093
▁med	-1094
▁mel	-1095
▁mur	-1096
▁nut	-1097
▁pet	-1098
▁pul	-1099
▁ref	-1100
▁shy	-1101
▁sin	-1102
▁spy	-1103
▁sum	-1104
▁tal	-1105
▁tin	-1106
▁vis	-1107
▁was	-1108
▁way	-1109
▁wed	-1110
▁won	-1111
ement	-1112
ering	-1113
ining	-1114
light	-1115
order	-1116
oring	-1117
otion	-1118
ousin	-1119
▁best	-1120
▁call	-1121
▁cool	-1122
▁dark	-1123
▁dosa	-1124
▁draw	-1125
▁even	-1126
▁fast	-1127
▁form	-1128
▁free	-1129
▁hang	-1130
▁just	-1131
▁kill	-1132
▁line	-1133
▁luck	-1134
▁made	-1135
▁mist	-1136
▁nose	-1137
▁noun	-1138
▁prin	-1139
▁read	-1140
▁shed	-1141
▁slow	-1142
▁sour	-1143
▁stem	-1144
▁stew	-1145
▁suff	-1146
▁surp	-1147
▁verb	-1148
▁wick	-1149
mother	-1150
ousand	-1151
rifice	-1152
▁anger	-1153
▁begin	-1154
▁break	-1155
▁class	-1156
▁court	-1157
▁cover	-1158
▁grass	-1159
▁greet	-1160
▁index	-1161
▁jewel	-1162
▁liter	-1163
▁match	-1164
▁moral	-1165
▁price	-1166
▁quick	-1167
▁shout	-1168
▁sport	-1169
▁stalk	-1170
▁sugar	-1171
▁swell	-1172
▁swing	-1173
▁tired	-1174
▁touch	-1175
▁treat	-1176
▁watch	-1177
▁world	-1178
cession	-1179
▁before	-1180
▁confus	-1181
▁cousin	-1182
▁flower	-1183
▁happen	-1184
▁middle	-1185
▁school	-1186
▁wealth	-1187
▁chicken	-1188
▁collect	-1189
▁conduct	-1190
▁destroy	-1191
▁protect	-1192
▁approxim	-1193
▁thousand	-1194
▁education	-1195
▁sacrifice	-1196
▁irritation	-1197
na	-1198
ys	-1199
bly	-1200
cho	-1201
eep	-1202
eld	-1203
emy	-1204
gry	-1205
icy	-1206
mar	-1207
now	-1208
ote	-1209
oul	-1210
ras	-1211
rol	-1212
ton	-1213
yra	-1214
▁vi	-1215
ache	-1216
addy	-1217
angu	-1218
athy	-1219
bate	-1220
cret	-1221
edly	-1222
ency	-1223
erty	-1224
hing	-1225
hood	-1226
ield	-1227
iety	-1228
ivid	-1229
ming	-1230
oler	-1231
omet	-1232
over	-1233
racy	-1234
rist	-1235
sper	-1236
stit	-1237
tion	-1238
▁are	-1239
▁ast	-1240
▁aun	-1241
▁bag	-1242
▁cal	-1243
▁che	-1244
▁dou	-1245
▁gri	-1246
▁ill	-1247
▁jud	-1248
▁leg	-1249
▁pat	-1250
▁por	-1251
▁rot	-1252
▁sit	-1253
▁spe	-1254
▁tot	-1255
▁wea	-1256
▁wid	-1257
amboo	-1258
antly	-1259
iffer	-1260
pathy	-1261
ranch	-1262
round	-1263
▁bank	-1264
▁bask	-1265
▁bear	-1266
▁beat	-1267
▁boat	-1268
▁bold	-1269
▁cand	-1270
▁card	-1271
▁cock	-1272
▁cold	-1273
▁dire	-1274
▁five	-1275
▁grow	-1276
▁hill	-1277
▁holy	-1278
▁iron	-1279
▁keep	-1280
▁know	-1281
▁lead	-1282
▁left	-1283
▁more	-1284
▁oven	-1285
▁plan	-1286
▁poss	-1287
▁pump	-1288
▁self	-1289
▁serv	-1290
▁silk	-1291
▁skin	-1292
▁soft	-1293
▁stay	-1294
▁tong	-1295
▁wear	-1296
▁what	-1297
▁year	-1298
ission	-1299
▁adver	-1300
▁broom	-1301
▁broth	-1302
▁decor	-1303
▁fibre	-1304
▁group	-1305
▁honey	-1306
▁langu	-1307
▁loose	-1308
▁night	-1309
▁produ	-1310
▁proud	-1311
▁screw	-1312
▁smell	-1313
▁smile	-1314
▁speak	-1315
▁stove	-1316
▁tense	-1317
▁three	-1318
▁toler	-1319
▁where	-1320
ception	-1321
▁bamboo	-1322
▁cattle	-1323
▁chilli	-1324
▁cotton	-1325
▁desire	-1326
▁ground	-1327
▁nation	-1328
▁number	-1329
▁plough	-1330
▁police	-1331
▁potato	-1332
▁secret	-1333
▁sports	-1334
▁sprout	-1335
▁thread	-1336
▁transl	-1337
▁wonder	-1338
▁advance	-1339
▁capital	-1340
▁country	-1341
▁individ	-1342
▁jaggery	-1343
▁palmyra	-1344
▁prepare	-1345
▁quarrel	-1346
▁support	-1347
▁worship	-1348
▁business	-1349
▁language	-1350
▁pregnant	-1351
▁relation	-1352
▁relative	-1353
▁surround	-1354
▁attention	-1355
▁government	-1356
▁understand	-1357
▁competition	-1358
▁measurement	-1359
be	-1360
by	-1361
we	-1362
yl	-1363
▁u	-1364
▁z	-1365
alo	-1366
ape	-1367
bow	-1368
can	-1369
ely	-1370
ere	-1371
iod	-1372
irm	-1373
isf	-1374
iva	-1375
ker	-1376
lag	-1377
ley	-1378
lim	-1379
nut	-1380
ole	-1381
ons	-1382
oof	-1383
ors	-1384
ray	-1385
rup	-1386
ten	-1387
ude	-1388
unk	-1389
ury	-1390
zle	-1391
▁bu	-1392
▁gl	-1393
▁ju	-1394
▁ok	-1395
▁ur	-1396
ctor	-1397
dest	-1398
ible	-1399
imes	-1400
land	-1401
leep	-1402
line	-1403
olve	-1404
ople	-1405
ript	-1406
ular	-1407
wise	-1408
wood	-1409
zard	-1410
▁ach	-1411
▁alm	-1412
▁bed	-1413
▁blo	-1414
▁bot	-1415
▁bow	-1416
▁boy	-1417
▁bul	-1418
▁dep	-1419
▁eff	-1420
▁fan	-1421
▁fat	-1422
▁fav	-1423
▁fil	-1424
▁fle	-1425
▁fre	-1426
▁fry	-1427
▁gut	-1428
▁hes	-1429
▁hon	-1430
▁lie	-1431
▁lim	-1432
▁loc	-1433
▁lot	-1434
▁mut	-1435
▁nor	-1436
▁pur	-1437
▁rat	-1438
▁sat	-1439
▁say	-1440
▁sea	-1441
▁sen	-1442
▁sil	-1443
▁six	-1444
▁tap	-1445
▁top	-1446
▁tub	-1447
acles	-1448
ching	-1449
estic	-1450
icult	-1451
inate	-1452
isher	-1453
olish	-1454
ously	-1455
rease	-1456
shold	-1457
where	-1458
▁army	-1459
▁body	-1460
▁cart	-1461
▁cash	-1462
▁conc	-1463
▁dict	-1464
▁diff	-1465
▁duty	-1466
▁evil	-1467
▁fail	-1468
▁fine	-1469
▁flag	-1470
▁four	-1471
▁full	-1472
▁hast	-1473
▁hosp	-1474
▁hour	-1475
▁husk	-1476
▁lean	-1477
▁less	-1478
▁list	-1479
▁live	-1480
▁look	-1481
▁mach	-1482
▁many	-1483
▁mean	-1484
▁meat	-1485
▁melt	-1486
▁mind	-1487
▁mush	-1488
▁oper	-1489
▁pass	-1490
▁path	-1491
▁pond	-1492
▁pred	-1493
▁pres	-1494
▁prof	-1495
▁pron	-1496
▁pure	-1497
▁resp	-1498
▁rise	-1499
▁show	-1500
▁step	-1501
▁talk	-1502
▁tank	-1503
▁them	-1504
▁thir	-1505
▁turn	-1506
▁wall	-1507
▁wash	-1508
eather	-1509
ension	-1510
father	-1511
gement	-1512
ration	-1513
unning	-1514
▁again	-1515
▁alone	-1516
▁arrog	-1517
▁assem	-1518
▁benef	-1519
▁broad	-1520
▁chain	-1521
▁cheek	-1522
▁clock	-1523
▁corre	-1524
▁crush	-1525
▁dress	-1526
▁eight	-1527
▁exper	-1528
▁fried	-1529
▁goods	-1530
▁goose	-1531
▁immer	-1532
▁instr	-1533
▁lemon	-1534
▁mango	-1535
▁month	-1536
▁oppos	-1537
▁paper	-1538
▁place	-1539
▁prize	-1540
▁roast	-1541
▁round	-1542
▁saree	-1543
▁scold	-1544
▁shoot	-1545
▁shuff	-1546
▁sieve	-1547
▁skill	-1548
▁sleep	-1549
▁somet	-1550
▁start	-1551
▁state	-1552
▁table	-1553
▁thick	-1554
▁trade	-1555
▁waste	-1556
▁wheel	-1557
aternal	-1558
▁anklet	-1559
▁banana	-1560
▁branch	-1561
▁butter	-1562
▁common	-1563
▁compil	-1564
▁driver	-1565
▁effect	-1566
▁follow	-1567
▁forget	-1568
▁gender	-1569
▁immedi	-1570
▁indian	-1571
▁laddle	-1572
▁length	-1573
▁lizard	-1574
▁memory	-1575
▁minute	-1576
▁nature	-1577
▁people	-1578
▁period	-1579
▁prison	-1580
▁result	-1581
▁simple	-1582
▁weight	-1583
▁winnow	-1584
▁boiling	-1585
▁compass	-1586
▁control	-1587
▁machine	-1588
▁mistake	-1589
▁someone	-1590
▁student	-1591
▁wedding	-1592
▁birthday	-1593
▁daughter	-1594
▁hospital	-1595
▁previous	-1596
▁affection	-1597
▁difficult	-1598
▁threshold	-1599
▁instrument	-1600
▁grandfather	-1601
▁grandmother	-1602
▁immediately	-1603
▁surrounding	-1604
aj	-1605
cc	-1606
lu	-1607
ok	-1608
ox	-1609
sc	-1610
te	-1611
aal	-1612
asy	-1613
ave	-1614
den	-1615
ead	-1616
gue	-1617
har	-1618
ipp	-1619
kin	-1620
lap	-1621
ubb	-1622
ulf	-1623
urn	-1624
val	-1625
vis	-1626
yle	-1627
▁ap	-1628
▁fa	-1629
ager	-1630
anth	-1631
arge	-1632
clip	-1633
cock	-1634
empt	-1635
eros	-1636
erve	-1637
eter	-1638
etic	-1639
ever	-1640
gage	-1641
iece	-1642
iled	-1643
iven	-1644
just	-1645
omit	-1646
pute	-1647
read	-1648
rink	-1649
riot	-1650
rown	-1651
time	-1652
ural	-1653
warf	-1654
ying	-1655
▁add	-1656
▁aud	-1657
▁bee	-1658
▁cin	-1659
▁den	-1660
▁dev	-1661
▁enc	-1662
▁end	-1663
▁est	-1664
▁fig	-1665
▁hen	-1666
▁ign	-1667
▁kin	-1668
▁laz	-1669
▁lic	-1670
▁nar	-1671
▁now	-1672
▁pay	-1673
▁rid	-1674
▁scr	-1675
▁see	-1676
▁set	-1677
▁sli	-1678
▁son	-1679
▁spl	-1680
▁tom	-1681
▁try	-1682
▁var	-1683
ammer	-1684
arent	-1685
arily	-1686
berry	-1687
canut	-1688
cious	-1689
desty	-1690
ellow	-1691
irror	-1692
itate	-1693
onest	-1694
stick	-1695
ually	-1696
uring	-1697
uspic	-1698
▁ache	-1699
▁ance	-1700
▁bark	-1701
▁bond	-1702
▁burn	-1703
▁cake	-1704
▁clay	-1705
▁come	-1706
▁conj	-1707
▁cori	-1708
▁curd	-1709
▁cust	-1710
▁dawn	-1711
▁days	-1712
▁deaf	-1713
▁deed	-1714
▁drop	-1715
▁emer	-1716
▁fear	-1717
▁fist	-1718
▁folk	-1719
▁food	-1720
▁hall	-1721
▁heat	-1722
▁help	-1723
▁hoof	-1724
▁idli	-1725
▁jump	-1726
▁lear	-1727
▁lent	-1728
▁lock	-1729
▁magn	-1730
▁mast	-1731
▁ment	-1732
▁neck	-1733
▁nine	-1734
▁pear	-1735
▁poor	-1736
▁prop	-1737
▁publ	-1738
▁real	-1739
▁rest	-1740
▁roof	-1741
▁sent	-1742
▁shar	-1743
▁shep	-1744
▁ship	-1745
▁shop	-1746
▁sick	-1747
▁sing	-1748
▁swim	-1749
▁tail	-1750
▁tall	-1751
▁tear	-1752
▁tele	-1753
▁then	-1754
▁till	-1755
▁type	-1756
▁unri	-1757
▁viol	-1758
▁wait	-1759
clipse	-1760
ertain	-1761
lessly	-1762
ocracy	-1763
uation	-1764
uffalo	-1765
▁allow	-1766
▁assoc	-1767
▁aunty	-1768
▁beans	-1769
▁behav	-1770
▁being	-1771
▁blood	-1772
▁bored	-1773
▁chief	-1774
▁clean	-1775
▁dates	-1776
▁doubt	-1777
▁drain	-1778
▁drink	-1779
▁dwarf	-1780
▁error	-1781
▁extre	-1782
▁flood	-1783
▁grace	-1784
▁happy	-1785
▁labor	-1786
▁lover	-1787
▁mercy	-1788
▁money	-1789
▁music	-1790
▁natur	-1791
▁north	-1792
▁paddy	-1793
▁paste	-1794
▁peace	-1795
▁piece	-1796
▁pract	-1797
▁scale	-1798
▁shake	-1799
▁south	-1800
▁spect	-1801
▁stand	-1802
▁surpr	-1803
▁thief	-1804
▁uncle	-1805
▁upper	-1806
▁vomit	-1807
ruction	-1808
▁accord	-1809
▁barren	-1810
▁basket	-1811
▁bengal	-1812
▁bitter	-1813
▁bottle	-1814
▁differ	-1815
▁family	-1816
▁farmer	-1817
▁ginger	-1818
▁grains	-1819
▁gutter	-1820
▁handle	-1821
▁honest	-1822
▁import	-1823
▁income	-1824
▁leaves	-1825
▁native	-1826
▁pillow	-1827
▁praise	-1828
▁punish	-1829
▁shrink	-1830
▁snatch	-1831
▁spring	-1832
▁strain	-1833
▁tongue	-1834
▁window	-1835
▁account	-1836
▁benefit	-1837
▁compose	-1838
▁delight	-1839
▁dispute	-1840
▁eclipse	-1841
▁meaning	-1842
▁modesty	-1843
▁musical	-1844
▁respect	-1845
▁science	-1846
▁servant	-1847
▁shorten	-1848
▁slipper	-1849
▁squeeze	-1850
▁without	-1851
▁arecanut	-1852
▁cheating	-1853
▁compiler	-1854
▁demolish	-1855
▁dissolve	-1856
▁increase	-1857
▁interest	-1858
▁obstruct	-1859
▁pleasure	-1860
▁separate	-1861
▁shepherd	-1862
▁sympathy	-1863
▁coriander	-1864
▁democracy	-1865
▁tradition	-1866
▁commission	-1867
▁difficulty	-1868
▁individual	-1869
▁literature	-1870
▁procession	-1871
▁association	-1872
▁approximately	-1873
bb	-1874
gg	-1875
gy	-1876
sm	-1877
so	-1878
▁5	-1879
aar	-1880
aff	-1881
ats	-1882
aun	-1883
awl	-1884
erk	-1885
ilt	-1886
iry	-1887
lop	-1888
nel	-1889
ogy	-1890
omy	-1891
oop	-1892
rid	-1893
rim	-1894
rot	-1895
sel	-1896
tic	-1897
urs	-1898
uss	-1899
uth	-1900
yth	-1901
▁1/	-1902
▁ax	-1903
▁ce	-1904
▁cy	-1905
▁om	-1906
acle	-1907
ancy	-1908
arch	-1909
ball	-1910
dern	-1911
erry	-1912
fort	-1913
gram	-1914
head	-1915
ider	-1916
inet	-1917
ited	-1918
izer	-1919
king	-1920
miss	-1921
ogra	-1922
oise	-1923
onze	-1924
orch	-1925
raid	-1926
reci	-1927
rest	-1928
rial	-1929
rift	-1930
rify	-1931
ssom	-1932
ught	-1933
unct	-1934
zing	-1935
▁bat	-1936
▁baz	-1937
▁cit	-1938
▁dar	-1939
▁dom	-1940
▁dup	-1941
▁egg	-1942
▁emp	-1943
▁etc	-1944
▁	-1945
e	-1946
a	-1947
t	-1948
r	-1949
i	-1950
o	-1951
n	-1952
s	-1953
l	-1954
c	-1955
d	-1956
u	-1957
h	-1958
m	-1959
p	-1960
g	-1961
,	-1962
y	-1963
b	-1964
f	-1965
w	-1966
k	-1967
v	-1968
x	-1969
/	-1970
j	-1971
q	-1972
z	-1973
-	-1974
'	-1975
(	-1976
)	-1977
`	-1978
1	-1979
.	-1980
’	-1981
2	-1982
3	-1983
5	-1984
6	-1985
4	-1986
0	-1987
?	-1988
8	-1989
­	-1990
ŋ	-1991
&	-1992
7	-1993
9	-1994
é	-1995
